TRT-8205-EntropyCalibration2
input_1: 3c010a14
conv1/convolution: 3c6b90ff
conv1/BiasAdd: 3c6b90ff
bn_conv1/batchnorm/mul_1: 3d8f7a87
bn_conv1/batchnorm/add_1: 3cbdf6af
activation_1/Relu: 3da3df57
block_1a_conv_1/convolution: 3d057fea
block_1a_conv_1/BiasAdd: 3d057fea
block_1a_bn_1/batchnorm/mul_1: 3dfd0903
block_1a_bn_1/batchnorm/add_1: 3cc418e3
block_1a_relu_1/Relu: 3cd1e616
block_1a_conv_2/convolution: 3d3b8cc1
block_1a_conv_2/BiasAdd: 3d3b8cc1
block_1a_bn_2/batchnorm/mul_1: 3e04cf49
block_1a_bn_2/batchnorm/add_1: 3d0a481c
block_1a_conv_shortcut/convolution: 3ca94f43
block_1a_conv_shortcut/BiasAdd: 3ca94f43
block_1a_bn_shortcut/batchnorm/mul_1: 3e304615
block_1a_bn_shortcut/batchnorm/add_1: 3cd532e7
add_1/add: 3d530002
block_1a_relu/Relu: 3da330f0
block_1b_conv_1/convolution: 3d9263d2
block_1b_conv_1/BiasAdd: 3d9263d2
block_1b_bn_1/batchnorm/mul_1: 3e4817b5
block_1b_bn_1/batchnorm/add_1: 3ce6d2f3
block_1b_relu_1/Relu: 3d184f3d
block_1b_conv_2/convolution: 3d3d6e43
block_1b_conv_2/BiasAdd: 3d3d6e43
block_1b_bn_2/batchnorm/mul_1: 3de870d1
block_1b_bn_2/batchnorm/add_1: 3d1f10e7
add_2/add: 3d3473fb
block_1b_relu/Relu: 3d9ed7df
block_2a_conv_1/convolution: 3e14bebe
block_2a_conv_1/BiasAdd: 3e14bebe
block_2a_bn_1/batchnorm/mul_1: 3e0abc75
block_2a_bn_1/batchnorm/add_1: 3ce31edb
block_2a_relu_1/Relu: 3d0730d8
block_2a_conv_2/convolution: 3d5ff31a
block_2a_conv_2/BiasAdd: 3d5ff31a
block_2a_bn_2/batchnorm/mul_1: 3df7ae4a
block_2a_bn_2/batchnorm/add_1: 3d0b6f95
block_2a_conv_shortcut/convolution: 3d62b9e8
block_2a_conv_shortcut/BiasAdd: 3d62b9e8
block_2a_bn_shortcut/batchnorm/mul_1: 3e303ee0
block_2a_bn_shortcut/batchnorm/add_1: 3cdc9818
add_3/add: 3d5d43dc
block_2a_relu/Relu: 3e80b9d5
block_2b_conv_1/convolution: 3de68346
block_2b_conv_1/BiasAdd: 3de68346
block_2b_bn_1/batchnorm/mul_1: 3dd0eda7
block_2b_bn_1/batchnorm/add_1: 3c828946
block_2b_relu_1/Relu: 3cc13f7b
block_2b_conv_2/convolution: 3c8308e9
block_2b_conv_2/BiasAdd: 3c8308e8
block_2b_bn_2/batchnorm/mul_1: 3db6afcb
block_2b_bn_2/batchnorm/add_1: 3c5b1a38
add_4/add: 3d87fe21
block_2b_relu/Relu: 3dbe10ba
block_3a_conv_1/convolution: 3e3c5be9
block_3a_conv_1/BiasAdd: 3e3c5be9
block_3a_bn_1/batchnorm/mul_1: 3e213e47
block_3a_bn_1/batchnorm/add_1: 3c97a162
block_3a_relu_1/Relu: 3e1f3290
block_3a_conv_2/convolution: 3d86679d
block_3a_conv_2/BiasAdd: 3d86679d
block_3a_bn_2/batchnorm/mul_1: 3dfe4cd2
block_3a_bn_2/batchnorm/add_1: 3cc6c816
block_3a_conv_shortcut/convolution: 3d25a7a6
block_3a_conv_shortcut/BiasAdd: 3d25a7a6
block_3a_bn_shortcut/batchnorm/mul_1: 3dbb0dbb
block_3a_bn_shortcut/batchnorm/add_1: 3c86f344
add_5/add: 3c8b08d1
block_3a_relu/Relu: 3df8b67b
block_3b_conv_1/convolution: 3d9860e9
block_3b_conv_1/BiasAdd: 3d9860e9
block_3b_bn_1/batchnorm/mul_1: 3d746ae5
block_3b_bn_1/batchnorm/add_1: 3c6ca383
block_3b_relu_1/Relu: 3d890069
block_3b_conv_2/convolution: 3ca83fdc
block_3b_conv_2/BiasAdd: 3ca83fdc
block_3b_bn_2/batchnorm/mul_1: 3da8fa1d
block_3b_bn_2/batchnorm/add_1: 3ce3b897
add_6/add: 3d237814
block_3b_relu/Relu: 3dde1dfd
block_4a_conv_1/convolution: 3e1b8cfe
block_4a_conv_1/BiasAdd: 3e1b8cfe
block_4a_bn_1/batchnorm/mul_1: 3d53ede4
block_4a_bn_1/batchnorm/add_1: 3c8e2717
block_4a_relu_1/Relu: 3d4dcfa2
block_4a_conv_2/convolution: 3d0db809
block_4a_conv_2/BiasAdd: 3d0db809
block_4a_bn_2/batchnorm/mul_1: 3d5b3405
block_4a_bn_2/batchnorm/add_1: 3c209f1a
block_4a_conv_shortcut/convolution: 3d511ccb
block_4a_conv_shortcut/BiasAdd: 3d511ccb
block_4a_bn_shortcut/batchnorm/mul_1: 3d315d86
block_4a_bn_shortcut/batchnorm/add_1: 3c1a8181
add_7/add: 3c929576
block_4a_relu/Relu: 3db25232
block_4b_conv_1/convolution: 3dd82a06
block_4b_conv_1/BiasAdd: 3dd82a06
block_4b_bn_1/batchnorm/mul_1: 3da3548c
block_4b_bn_1/batchnorm/add_1: 3c7d172c
block_4b_relu_1/Relu: 3d8bdb52
block_4b_conv_2/convolution: 3d2fe22a
block_4b_conv_2/BiasAdd: 3d2fe22a
block_4b_bn_2/batchnorm/mul_1: 3e152a8b
block_4b_bn_2/batchnorm/add_1: 3d91aedf
add_8/add: 3d91aedf
block_4b_relu/Relu: 3e1aebfe
output_bbox/convolution: 3d52747f
output_bbox/BiasAdd: 3d600fb3
output_cov/convolution: 3ea60948
output_cov/BiasAdd: 3ea91123
output_cov/Sigmoid: 3c0109e0
